// Auto-generated file. Do not edit!
#ifndef HORIZONTAL_MODEL_DATA_H
#define HORIZONTAL_MODEL_DATA_H

const unsigned char horizontal_model_data[] = {
  0x1c, 0x00, 0x00, 0x00, 0x54, 0x46, 0x4c, 0x33, 0x14, 0x00, 0x20, 0x00, 
  0x1c, 0x00, 0x18, 0x00, 0x14, 0x00, 0x10, 0x00, 0x0c, 0x00, 0x00, 0x00, 
  0x08, 0x00, 0x04, 0x00, 0x14, 0x00, 0x00, 0x00, 0x1c, 0x00, 0x00, 0x00, 
  0x98, 0x00, 0x00, 0x00, 0xf0, 0x00, 0x00, 0x00, 0x24, 0x08, 0x00, 0x00, 
  0x34, 0x08, 0x00, 0x00, 0xe8, 0x0d, 0x00, 0x00, 0x03, 0x00, 0x00, 0x00, 
  0x01, 0x00, 0x00, 0x00, 0x10, 0x00, 0x00, 0x00, 0x00, 0x00, 0x0a, 0x00, 
  0x10, 0x00, 0x0c, 0x00, 0x08, 0x00, 0x04, 0x00, 0x0a, 0x00, 0x00, 0x00, 
  0x0c, 0x00, 0x00, 0x00, 0x1c, 0x00, 0x00, 0x00, 0x3c, 0x00, 0x00, 0x00, 
  0x0f, 0x00, 0x00, 0x00, 0x73, 0x65, 0x72, 0x76, 0x69, 0x6e, 0x67, 0x5f, 
  0x64, 0x65, 0x66, 0x61, 0x75, 0x6c, 0x74, 0x00, 0x01, 0x00, 0x00, 0x00, 
  0x04, 0x00, 0x00, 0x00, 0x90, 0xff, 0xff, 0xff, 0x0a, 0x00, 0x00, 0x00, 
  0x04, 0x00, 0x00, 0x00, 0x08, 0x00, 0x00, 0x00, 0x6f, 0x75, 0x74, 0x70, 
  0x75, 0x74, 0x5f, 0x30, 0x00, 0x00, 0x00, 0x00, 0x01, 0x00, 0x00, 0x00, 
  0x04, 0x00, 0x00, 0x00, 0xc2, 0xf7, 0xff, 0xff, 0x04, 0x00, 0x00, 0x00, 
  0x0c, 0x00, 0x00, 0x00, 0x6b, 0x65, 0x72, 0x61, 0x73, 0x5f, 0x74, 0x65, 
  0x6e, 0x73, 0x6f, 0x72, 0x00, 0x00, 0x00, 0x00, 0x02, 0x00, 0x00, 0x00, 
  0x34, 0x00, 0x00, 0x00, 0x04, 0x00, 0x00, 0x00, 0xdc, 0xff, 0xff, 0xff, 
  0x0d, 0x00, 0x00, 0x00, 0x04, 0x00, 0x00, 0x00, 0x13, 0x00, 0x00, 0x00, 
  0x43, 0x4f, 0x4e, 0x56, 0x45, 0x52, 0x53, 0x49, 0x4f, 0x4e, 0x5f, 0x4d, 
  0x45, 0x54, 0x41, 0x44, 0x41, 0x54, 0x41, 0x00, 0x08, 0x00, 0x0c, 0x00, 
  0x08, 0x00, 0x04, 0x00, 0x08, 0x00, 0x00, 0x00, 0x0c, 0x00, 0x00, 0x00, 
  0x04, 0x00, 0x00, 0x00, 0x13, 0x00, 0x00, 0x00, 0x6d, 0x69, 0x6e, 0x5f, 
  0x72, 0x75, 0x6e, 0x74, 0x69, 0x6d, 0x65, 0x5f, 0x76, 0x65, 0x72, 0x73, 
  0x69, 0x6f, 0x6e, 0x00, 0x0e, 0x00, 0x00, 0x00, 0x30, 0x07, 0x00, 0x00, 
  0x28, 0x07, 0x00, 0x00, 0xd8, 0x05, 0x00, 0x00, 0xc8, 0x01, 0x00, 0x00, 
  0xa4, 0x01, 0x00, 0x00, 0x54, 0x01, 0x00, 0x00, 0x04, 0x01, 0x00, 0x00, 
  0xb4, 0x00, 0x00, 0x00, 0xac, 0x00, 0x00, 0x00, 0xa4, 0x00, 0x00, 0x00, 
  0x9c, 0x00, 0x00, 0x00, 0x94, 0x00, 0x00, 0x00, 0x74, 0x00, 0x00, 0x00, 
  0x04, 0x00, 0x00, 0x00, 0x76, 0xf8, 0xff, 0xff, 0x04, 0x00, 0x00, 0x00, 
  0x60, 0x00, 0x00, 0x00, 0x0c, 0x00, 0x00, 0x00, 0x08, 0x00, 0x0e, 0x00, 
  0x08, 0x00, 0x04, 0x00, 0x08, 0x00, 0x00, 0x00, 0x10, 0x00, 0x00, 0x00, 
  0x28, 0x00, 0x00, 0x00, 0x00, 0x00, 0x06, 0x00, 0x08, 0x00, 0x04, 0x00, 
  0x06, 0x00, 0x00, 0x00, 0x04, 0x00, 0x00, 0x00, 0x01, 0x00, 0x00, 0x00, 
  0xea, 0x03, 0x00, 0x00, 0x0c, 0x00, 0x18, 0x00, 0x14, 0x00, 0x10, 0x00, 
  0x0c, 0x00, 0x04, 0x00, 0x0c, 0x00, 0x00, 0x00, 0x25, 0x59, 0x3f, 0x0f, 
  0xc6, 0x8a, 0x19, 0x76, 0x02, 0x00, 0x00, 0x00, 0x02, 0x00, 0x00, 0x00, 
  0x04, 0x00, 0x00, 0x00, 0x06, 0x00, 0x00, 0x00, 0x32, 0x2e, 0x31, 0x38, 
  0x2e, 0x30, 0x00, 0x00, 0xe2, 0xf8, 0xff, 0xff, 0x04, 0x00, 0x00, 0x00, 
  0x10, 0x00, 0x00, 0x00, 0x31, 0x2e, 0x35, 0x2e, 0x30, 0x00, 0x00, 0x00, 
  0x00, 0x00, 0x00, 0x00, 0x00, 0x00, 0x00, 0x00, 0xf8, 0xf3, 0xff, 0xff, 
  0xfc, 0xf3, 0xff, 0xff, 0x00, 0xf4, 0xff, 0xff, 0x04, 0xf4, 0xff, 0xff, 
  0x0e, 0xf9, 0xff, 0xff, 0x04, 0x00, 0x00, 0x00, 0x40, 0x00, 0x00, 0x00, 
  0xe3, 0x66, 0xfd, 0x3e, 0x2b, 0x4b, 0x7a, 0x3d, 0xd0, 0x21, 0x68, 0x3e, 
  0x22, 0xf7, 0x40, 0xbe, 0x72, 0x70, 0x69, 0xbe, 0xc5, 0x82, 0x37, 0x3e, 
  0x04, 0x76, 0xe8, 0x3d, 0x80, 0x2d, 0x6e, 0xbe, 0xa1, 0xce, 0x9e, 0xbe, 
  0xe2, 0x6d, 0x6e, 0xbe, 0xfc, 0xb7, 0x9d, 0xbe, 0x78, 0x95, 0x65, 0x3e, 
  0x95, 0x87, 0x98, 0x3e, 0xb7, 0x78, 0xb4, 0x3e, 0xba, 0xd2, 0x65, 0x3e, 
  0x88, 0xe5, 0xc0, 0xbe, 0x5a, 0xf9, 0xff, 0xff, 0x04, 0x00, 0x00, 0x00, 
  0x40, 0x00, 0x00, 0x00, 0xc1, 0x1a, 0x78, 0xbf, 0x7f, 0xcf, 0x7d, 0x3f, 
  0xd1, 0x98, 0x89, 0x3f, 0x00, 0x00, 0x00, 0x00, 0x00, 0x00, 0x00, 0x00, 
  0x25, 0x0c, 0x8b, 0x3f, 0x64, 0x2c, 0xf0, 0xbe, 0x00, 0x00, 0x00, 0x00, 
  0x00, 0x00, 0x00, 0x00, 0x00, 0x00, 0x00, 0x00, 0x00, 0x00, 0x00, 0x00, 
  0xe7, 0x2a, 0x31, 0xbf, 0xe1, 0x8a, 0xce, 0x3e, 0x31, 0x80, 0x64, 0xbf, 
  0x54, 0xb6, 0x34, 0xbf, 0x00, 0x00, 0x00, 0x00, 0xa6, 0xf9, 0xff, 0xff, 
  0x04, 0x00, 0x00, 0x00, 0x40, 0x00, 0x00, 0x00, 0x90, 0x42, 0xdc, 0xbe, 
  0x6e, 0x22, 0x76, 0xbe, 0x00, 0x00, 0x00, 0x00, 0x73, 0xed, 0xc0, 0xbe, 
  0x00, 0x00, 0x00, 0x00, 0x9c, 0x59, 0xa2, 0x3e, 0x00, 0x00, 0x00, 0x00, 
  0x42, 0xdc, 0xa3, 0xbc, 0x00, 0x00, 0x00, 0x00, 0x4e, 0x4c, 0xe7, 0xbe, 
  0x56, 0x0e, 0x04, 0x3f, 0x62, 0xc2, 0x21, 0xbf, 0xbc, 0xa2, 0x8f, 0x3f, 
  0x00, 0x00, 0x00, 0x00, 0xec, 0xea, 0xc7, 0x3e, 0x00, 0x00, 0x00, 0x00, 
  0xf2, 0xf9, 0xff, 0xff, 0x04, 0x00, 0x00, 0x00, 0x14, 0x00, 0x00, 0x00, 
  0xab, 0x39, 0xf9, 0x3e, 0x21, 0xce, 0x90, 0xbe, 0x43, 0xfe, 0x9a, 0xbb, 
  0x8e, 0x09, 0x67, 0x3e, 0x94, 0x42, 0x11, 0xbf, 0x12, 0xfa, 0xff, 0xff, 
  0x04, 0x00, 0x00, 0x00, 0x00, 0x04, 0x00, 0x00, 0xf2, 0x0b, 0xe6, 0x3e, 
  0xc6, 0x49, 0xc6, 0xbd, 0x5e, 0x43, 0x67, 0x3d, 0xb8, 0x1f, 0x33, 0xbe, 
  0xc9, 0x52, 0xad, 0x3e, 0xdc, 0x67, 0xe7, 0x3d, 0x89, 0xd5, 0x77, 0x3e, 
  0xa8, 0xff, 0x8c, 0xbe, 0x28, 0x62, 0x03, 0x3d, 0x65, 0xfe, 0xca, 0x3e, 
  0x28, 0x23, 0x38, 0xbd, 0xe8, 0x3c, 0xc1, 0xbd, 0xd5, 0x90, 0xe6, 0xbe, 
  0x9c, 0x7f, 0x2a, 0x3d, 0x7a, 0x0a, 0xb1, 0x39, 0x5c, 0x82, 0xc0, 0x3d, 
  0x38, 0x31, 0x10, 0x3e, 0xe3, 0x37, 0x80, 0x3e, 0x9c, 0xfa, 0xc9, 0x3e, 
  0x4b, 0x3a, 0xc4, 0x3e, 0x25, 0x07, 0xc7, 0x3e, 0xa2, 0xeb, 0x91, 0xbe, 
  0xc2, 0xb3, 0xef, 0x3e, 0x53, 0x87, 0xd6, 0xbe, 0x3a, 0x8b, 0x9e, 0xbe, 
  0xd2, 0x5b, 0xc9, 0xbe, 0x70, 0x25, 0xb8, 0xbc, 0xa5, 0xc9, 0x17, 0x3f, 
  0xc5, 0xa5, 0x25, 0xbe, 0x79, 0x9c, 0xe5, 0x3e, 0xa5, 0xd4, 0x19, 0x3f, 
  0x64, 0x2d, 0xd8, 0x3d, 0x4a, 0xf6, 0x35, 0xbe, 0xa0, 0x34, 0x8a, 0xbc, 
  0x2a, 0x04, 0x3b, 0x3e, 0xd4, 0xd2, 0xb1, 0xbe, 0x20, 0xa7, 0x16, 0xbc, 
  0xf3, 0xfe, 0xb0, 0xbe, 0x30, 0xf6, 0xa4, 0xbc, 0xdb, 0x2a, 0x85, 0x3e, 
  0x6e, 0x39, 0x36, 0x3e, 0x79, 0x9c, 0xd6, 0x3e, 0x7a, 0xa6, 0x5f, 0x3e, 
  0x3e, 0x41, 0x00, 0xbe, 0xdc, 0xcb, 0x83, 0x3d, 0xe8, 0x0f, 0xd2, 0xbd, 
  0x1c, 0x5a, 0xa4, 0xbe, 0xf9, 0x03, 0x80, 0x3e, 0x56, 0xdb, 0x41, 0x3f, 
  0x49, 0xf3, 0xc7, 0xbe, 0x63, 0xb7, 0x31, 0x3e, 0xb1, 0xaa, 0xb9, 0x3e, 
  0xd1, 0x4b, 0xab, 0x3e, 0x5d, 0xbe, 0x81, 0xbe, 0xc0, 0x45, 0x2d, 0x3f, 
  0x83, 0xb5, 0x8c, 0x3e, 0x1a, 0xaa, 0x0f, 0x3e, 0xce, 0xef, 0x83, 0xbe, 
  0x3c, 0x5b, 0xac, 0xbe, 0xf7, 0x65, 0x18, 0x3f, 0x60, 0x60, 0x0a, 0x3e, 
  0xe4, 0x0f, 0x11, 0x3f, 0xc2, 0x9e, 0x6a, 0x3f, 0x83, 0xa8, 0xa6, 0x3e, 
  0x50, 0xa4, 0x11, 0xbe, 0x2b, 0x32, 0x72, 0xbe, 0x68, 0x89, 0x39, 0xbe, 
  0x06, 0x13, 0x2a, 0xbe, 0x44, 0x76, 0x3d, 0xbe, 0x2d, 0x1f, 0xb0, 0xbe, 
  0x5c, 0x45, 0xee, 0xbd, 0x94, 0x71, 0xf6, 0xbd, 0x4a, 0x8c, 0x2e, 0x3e, 
  0x0c, 0x4c, 0xb5, 0xbe, 0xe0, 0xdc, 0xb8, 0xbd, 0xb8, 0x04, 0x02, 0xbd, 
  0x00, 0xc4, 0x26, 0x3a, 0x2b, 0xb3, 0xb7, 0xbe, 0x50, 0x12, 0x74, 0x3d, 
  0x5c, 0x6a, 0xd8, 0x3d, 0x95, 0x50, 0xba, 0x3e, 0x16, 0xfb, 0x48, 0xbe, 
  0x73, 0x13, 0xeb, 0x3d, 0x13, 0x78, 0xc1, 0xbe, 0x66, 0xc9, 0x51, 0x3e, 
  0x24, 0x0a, 0x80, 0x3e, 0xdb, 0x05, 0xb6, 0x3e, 0xe0, 0x25, 0x5c, 0xbc, 
  0xae, 0x3e, 0x29, 0xbe, 0xc5, 0xcf, 0xac, 0x3e, 0xa8, 0x03, 0x80, 0xbe, 
  0xc7, 0xdd, 0xa6, 0xbe, 0xa0, 0x73, 0x20, 0xbe, 0x50, 0x2e, 0x75, 0xbe, 
  0x67, 0xfb, 0xf3, 0xbd, 0xc4, 0x93, 0x88, 0xbd, 0xe0, 0x05, 0x79, 0xbd, 
  0xdc, 0xde, 0xa8, 0x3d, 0x20, 0x0f, 0x50, 0xbc, 0x1a, 0xb6, 0x17, 0xbe, 
  0x5e, 0x16, 0xb5, 0xbe, 0xad, 0xad, 0x9b, 0xbe, 0xc0, 0xbd, 0x70, 0xbe, 
  0xb1, 0xff, 0x91, 0x3e, 0xb7, 0x01, 0xd3, 0x3e, 0xec, 0x7f, 0x95, 0x3d, 
  0x24, 0x76, 0xd5, 0x3d, 0xc9, 0xe3, 0xa9, 0x3e, 0x6f, 0xd6, 0x8e, 0x3e, 
  0xe9, 0x4a, 0xd4, 0xbe, 0x8e, 0x51, 0xa3, 0xbe, 0x8c, 0xcd, 0x9c, 0xbe, 
  0x78, 0x8d, 0x32, 0x3d, 0xa7, 0x4d, 0xa3, 0xbe, 0x86, 0x73, 0xe4, 0xbd, 
  0xab, 0x0c, 0xae, 0x3e, 0x15, 0x02, 0xc2, 0x3e, 0x62, 0x0d, 0xb1, 0x3e, 
  0x16, 0x39, 0x1b, 0xbd, 0x70, 0xb7, 0xef, 0x3c, 0x38, 0x22, 0x18, 0xbe, 
  0xa9, 0x06, 0xc0, 0x3e, 0x5b, 0x78, 0x8f, 0x3e, 0xaa, 0xac, 0x3e, 0xbe, 
  0xcf, 0x60, 0x97, 0xbe, 0x31, 0x14, 0x5a, 0xbe, 0xf1, 0xba, 0xb8, 0x3e, 
  0xb9, 0xd7, 0x85, 0x3e, 0xdc, 0xf2, 0x72, 0xbe, 0x52, 0x9e, 0x3d, 0x3e, 
  0x61, 0x30, 0xb6, 0xbe, 0x48, 0x6d, 0x52, 0x3d, 0xdc, 0xb1, 0xba, 0xbe, 
  0x80, 0x81, 0x1d, 0x3d, 0xe0, 0xb1, 0x8f, 0xbe, 0xd4, 0x68, 0xb8, 0xbe, 
  0x70, 0x99, 0x0d, 0xbd, 0x90, 0x44, 0xac, 0xbd, 0xee, 0x3b, 0xa3, 0xbe, 
  0xcc, 0xfd, 0xd9, 0xbe, 0xba, 0x1a, 0x3b, 0xbe, 0x30, 0x13, 0x16, 0xbe, 
  0xc7, 0xb6, 0x95, 0x3e, 0x75, 0xa7, 0x8a, 0x3e, 0x5a, 0x32, 0x16, 0x3e, 
  0x26, 0x1b, 0x83, 0xbe, 0x11, 0x7e, 0x31, 0xbe, 0xb9, 0x08, 0x3f, 0xbe, 
  0xb7, 0x70, 0x96, 0x3e, 0xb9, 0x4e, 0x75, 0x3e, 0x1c, 0x4f, 0x3d, 0x3d, 
  0x52, 0x79, 0x47, 0x3e, 0x9f, 0xcd, 0xa7, 0x3e, 0x9c, 0x71, 0x30, 0xbe, 
  0xe1, 0xaa, 0xcd, 0x3e, 0xa7, 0xe4, 0x81, 0x3d, 0xf2, 0xf3, 0xa5, 0x3e, 
  0xd6, 0x04, 0xed, 0x3e, 0x9a, 0x8b, 0x20, 0x3f, 0x8f, 0xcb, 0xae, 0xbe, 
  0x3c, 0x74, 0xa3, 0x3e, 0x8c, 0xda, 0xc9, 0x3e, 0x57, 0x1e, 0xc5, 0x3e, 
  0x54, 0x09, 0xb7, 0xbd, 0x85, 0xf8, 0xa2, 0x3e, 0x8a, 0xed, 0xfa, 0x3e, 
  0x41, 0x32, 0x8b, 0xbe, 0x70, 0xf9, 0xa6, 0xbd, 0x5e, 0x65, 0x1d, 0x3e, 
  0xda, 0xc7, 0x6c, 0xbe, 0xf9, 0x2d, 0x9f, 0x3e, 0xc0, 0x55, 0xa8, 0xbe, 
  0x09, 0x49, 0xda, 0xbd, 0xf5, 0xa3, 0x35, 0xbd, 0x4d, 0xe1, 0xa5, 0xbe, 
  0x80, 0xfa, 0x0b, 0x3b, 0x2a, 0x38, 0xc7, 0x3e, 0xb9, 0x67, 0xb9, 0xbe, 
  0xa7, 0x39, 0x51, 0xbe, 0x33, 0x84, 0xd9, 0xbe, 0x78, 0x5e, 0x8d, 0xbe, 
  0x83, 0xf3, 0xf1, 0xbe, 0x4b, 0xdd, 0x37, 0x3e, 0x87, 0xaf, 0x98, 0xbe, 
  0xd4, 0x75, 0xef, 0x3d, 0x8f, 0x90, 0xa6, 0x3e, 0x1f, 0xfd, 0xcc, 0xbe, 
  0x43, 0xc3, 0x8b, 0x3e, 0x17, 0x33, 0x31, 0xbd, 0xdc, 0xe2, 0x7f, 0x3e, 
  0x35, 0x9d, 0x0c, 0x3f, 0xa7, 0xe9, 0xab, 0xbe, 0xe9, 0xa5, 0xf5, 0xbe, 
  0x24, 0xe7, 0x7a, 0x3f, 0xf2, 0x96, 0x52, 0x3f, 0x48, 0x24, 0x6d, 0x3d, 
  0x2e, 0xbf, 0xc3, 0xbe, 0x9b, 0x68, 0x7e, 0x3f, 0x37, 0x1b, 0x0f, 0xbf, 
  0x27, 0xb2, 0x4e, 0xbe, 0xd9, 0xea, 0x9c, 0x3e, 0xb9, 0x0e, 0xab, 0xbe, 
  0x25, 0x4a, 0x72, 0xbe, 0x6b, 0x18, 0x3e, 0xbf, 0x76, 0xb2, 0x6d, 0x3e, 
  0xfd, 0x75, 0xf3, 0xbe, 0xb9, 0x35, 0xfb, 0xbe, 0xaa, 0x6f, 0x4e, 0x3e, 
  0xc1, 0x66, 0x51, 0xbe, 0x68, 0x6b, 0x8d, 0xbe, 0x34, 0xd7, 0xb2, 0x3d, 
  0xef, 0xf6, 0x70, 0xbe, 0xca, 0x31, 0x85, 0xbe, 0xde, 0xb5, 0x87, 0xbe, 
  0x89, 0x2d, 0xdd, 0x3e, 0xb4, 0xf0, 0x85, 0xbd, 0x9d, 0xd1, 0xd4, 0x3e, 
  0x96, 0x4a, 0x3d, 0x3e, 0xe9, 0x77, 0xb7, 0x3e, 0x6b, 0xb7, 0xd7, 0x3e, 
  0xec, 0x0c, 0xab, 0xbe, 0x3c, 0x62, 0xa1, 0x3d, 0x04, 0x5c, 0xde, 0xbd, 
  0x4a, 0xc1, 0x3d, 0x3e, 0x87, 0x98, 0xcc, 0x3d, 0x41, 0xcf, 0x90, 0x3e, 
  0x58, 0x42, 0xda, 0x3e, 0x71, 0xd1, 0x98, 0x3e, 0x37, 0xc0, 0xa3, 0x3e, 
  0x7c, 0x9b, 0xc8, 0x3e, 0xdb, 0x78, 0xbd, 0x3e, 0x6a, 0x49, 0xd5, 0xbe, 
  0x05, 0xba, 0xcc, 0x3e, 0x85, 0x49, 0x94, 0x3e, 0x50, 0x8b, 0x10, 0xbe, 
  0x38, 0x1b, 0x37, 0x3e, 0xb3, 0x1c, 0xac, 0x3d, 0x32, 0x0a, 0x01, 0x3e, 
  0x17, 0xad, 0xb5, 0xbe, 0x86, 0xa9, 0xbd, 0xbe, 0x8c, 0x29, 0x85, 0xbe, 
  0xe5, 0xc6, 0x80, 0x3e, 0xb4, 0x82, 0x98, 0xbd, 0x30, 0x18, 0xaf, 0xbc, 
  0x96, 0xbd, 0x2f, 0xbe, 0xba, 0x63, 0x1d, 0xbe, 0xec, 0x0f, 0xc9, 0xbe, 
  0x20, 0x19, 0xa8, 0xbe, 0x7f, 0x41, 0x8a, 0x3e, 0x22, 0xd5, 0x01, 0xbe, 
  0x00, 0xe2, 0x44, 0x3a, 0x40, 0xea, 0xfb, 0xbb, 0xc4, 0x56, 0x8c, 0xbe, 
  0xfa, 0x77, 0x3a, 0x3e, 0x96, 0x94, 0x32, 0xbe, 0xc1, 0x04, 0xc6, 0x3e, 
  0x1e, 0xfe, 0xff, 0xff, 0x04, 0x00, 0x00, 0x00, 0x40, 0x01, 0x00, 0x00, 
  0x54, 0x85, 0x7c, 0x3e, 0xa4, 0x52, 0x9a, 0xbf, 0x60, 0x58, 0xb6, 0xbc, 
  0x52, 0x30, 0xae, 0xbf, 0x5a, 0x0e, 0xc1, 0xbe, 0xa4, 0x4a, 0x92, 0x3e, 
  0x00, 0x83, 0x4e, 0x3c, 0x97, 0xdf, 0xc2, 0xbe, 0x80, 0x2b, 0x9e, 0x3e, 
  0x6a, 0xed, 0x84, 0xbf, 0x72, 0x59, 0x39, 0x3e, 0xdf, 0xa3, 0x4e, 0xbf, 
  0xe0, 0x7c, 0xad, 0x3f, 0x9c, 0xce, 0xba, 0xbe, 0x40, 0x3e, 0x0f, 0x3f, 
  0x2c, 0xdd, 0xe3, 0xbe, 0x0f, 0xe1, 0x10, 0x3f, 0x50, 0x38, 0xc0, 0x3d, 
  0xce, 0x7c, 0xf7, 0x3e, 0x68, 0xc0, 0xf1, 0x3e, 0xad, 0x80, 0x04, 0x3f, 
  0x9c, 0x46, 0xfd, 0xbe, 0x04, 0xfb, 0x46, 0x3e, 0x42, 0x2b, 0x02, 0x3d, 
  0xe8, 0xb2, 0x5c, 0xbd, 0x76, 0x5d, 0x3c, 0x3d, 0x6a, 0xfe, 0xbf, 0x3d, 
  0x54, 0xec, 0x40, 0xbe, 0xc4, 0x76, 0x55, 0xbf, 0x80, 0x83, 0x25, 0x3c, 
  0x97, 0x28, 0x78, 0x3e, 0xa8, 0x36, 0x68, 0x3e, 0x4c, 0x5f, 0x4b, 0xbe, 
  0xf8, 0xed, 0xc5, 0x3e, 0xad, 0x9e, 0xa0, 0xbe, 0xf7, 0xa5, 0xa1, 0x3e, 
  0xea, 0x13, 0xf2, 0x3e, 0x03, 0x23, 0x09, 0x3e, 0x00, 0x74, 0x6a, 0x3b, 
  0x2c, 0x26, 0x29, 0xbe, 0x10, 0x27, 0x78, 0x3d, 0x48, 0x12, 0x07, 0x3f, 
  0x17, 0xa2, 0xb2, 0x3e, 0xf0, 0x15, 0x9e, 0xbf, 0x07, 0x6a, 0x04, 0xbe, 
  0x80, 0x4e, 0x1f, 0x3c, 0x95, 0xa6, 0xf7, 0xbe, 0x28, 0x1b, 0x92, 0x3d, 
  0x4f, 0x35, 0xca, 0xbe, 0x41, 0x38, 0x51, 0x3d, 0xf8, 0xbb, 0x2b, 0x3e, 
  0xf7, 0xbd, 0x35, 0x3d, 0x74, 0xd3, 0x56, 0x3e, 0xd0, 0xbc, 0x33, 0xbd, 
  0x10, 0x7e, 0x9e, 0x3d, 0x52, 0x19, 0x0d, 0xbd, 0x12, 0xcb, 0xbd, 0x3e, 
  0xc6, 0xd8, 0x08, 0xbf, 0xfe, 0x3a, 0x92, 0x3e, 0xb6, 0x97, 0xc0, 0xbf, 
  0xc7, 0x09, 0x04, 0x3f, 0x4c, 0xdd, 0x89, 0x3e, 0x25, 0xa8, 0x11, 0x3f, 
  0x48, 0x39, 0x65, 0xbe, 0x83, 0x0d, 0xec, 0x3e, 0x49, 0xf8, 0xa6, 0xbd, 
  0xb6, 0xf4, 0xa3, 0x3e, 0xe1, 0x73, 0x24, 0x3f, 0x66, 0x1c, 0xc2, 0xbe, 
  0xfe, 0x23, 0xe9, 0x3c, 0xc2, 0x0f, 0xce, 0x3e, 0x0a, 0xa7, 0x39, 0xbd, 
  0x5e, 0x66, 0x8f, 0x3e, 0xae, 0x7f, 0x96, 0x3e, 0xdf, 0x78, 0x31, 0xbf, 
  0x99, 0xa5, 0x7f, 0x3f, 0x73, 0x34, 0xc5, 0xbf, 0x7e, 0xbe, 0x75, 0xbe, 
  0xc1, 0x4d, 0x82, 0xbd, 0x60, 0xcf, 0x4d, 0x3d, 0x64, 0xfa, 0xff, 0xff, 
  0x68, 0xfa, 0xff, 0xff, 0x0f, 0x00, 0x00, 0x00, 0x4d, 0x4c, 0x49, 0x52, 
  0x20, 0x43, 0x6f, 0x6e, 0x76, 0x65, 0x72, 0x74, 0x65, 0x64, 0x2e, 0x00, 
  0x01, 0x00, 0x00, 0x00, 0x14, 0x00, 0x00, 0x00, 0x00, 0x00, 0x0e, 0x00, 
  0x18, 0x00, 0x14, 0x00, 0x10, 0x00, 0x0c, 0x00, 0x08, 0x00, 0x04, 0x00, 
  0x0e, 0x00, 0x00, 0x00, 0x14, 0x00, 0x00, 0x00, 0x1c, 0x00, 0x00, 0x00, 
  0x24, 0x01, 0x00, 0x00, 0x28, 0x01, 0x00, 0x00, 0x2c, 0x01, 0x00, 0x00, 
  0x04, 0x00, 0x00, 0x00, 0x6d, 0x61, 0x69, 0x6e, 0x00, 0x00, 0x00, 0x00, 
  0x04, 0x00, 0x00, 0x00, 0xcc, 0x00, 0x00, 0x00, 0x84, 0x00, 0x00, 0x00, 
  0x50, 0x00, 0x00, 0x00, 0x14, 0x00, 0x00, 0x00, 0x00, 0x00, 0x0e, 0x00, 
  0x1a, 0x00, 0x14, 0x00, 0x10, 0x00, 0x0c, 0x00, 0x0b, 0x00, 0x04, 0x00, 
  0x0e, 0x00, 0x00, 0x00, 0x1c, 0x00, 0x00, 0x00, 0x00, 0x00, 0x00, 0x09, 
  0x1c, 0x00, 0x00, 0x00, 0x20, 0x00, 0x00, 0x00, 0x01, 0x00, 0x00, 0x00, 
  0x00, 0x00, 0x06, 0x00, 0x08, 0x00, 0x04, 0x00, 0x06, 0x00, 0x00, 0x00, 
  0x00, 0x00, 0x80, 0x3f, 0x01, 0x00, 0x00, 0x00, 0x0a, 0x00, 0x00, 0x00, 
  0x01, 0x00, 0x00, 0x00, 0x09, 0x00, 0x00, 0x00, 0x9a, 0xff, 0xff, 0xff, 
  0x10, 0x00, 0x00, 0x00, 0x00, 0x00, 0x00, 0x08, 0x0c, 0x00, 0x00, 0x00, 
  0x10, 0x00, 0x00, 0x00, 0x2c, 0xfb, 0xff, 0xff, 0x01, 0x00, 0x00, 0x00, 
  0x09, 0x00, 0x00, 0x00, 0x03, 0x00, 0x00, 0x00, 0x08, 0x00, 0x00, 0x00, 
  0x01, 0x00, 0x00, 0x00, 0x03, 0x00, 0x00, 0x00, 0xca, 0xff, 0xff, 0xff, 
  0x10, 0x00, 0x00, 0x00, 0x00, 0x00, 0x00, 0x08, 0x10, 0x00, 0x00, 0x00, 
  0x14, 0x00, 0x00, 0x00, 0xba, 0xff, 0xff, 0xff, 0x00, 0x00, 0x00, 0x01, 
  0x01, 0x00, 0x00, 0x00, 0x08, 0x00, 0x00, 0x00, 0x03, 0x00, 0x00, 0x00, 
  0x07, 0x00, 0x00, 0x00, 0x02, 0x00, 0x00, 0x00, 0x04, 0x00, 0x00, 0x00, 
  0x00, 0x00, 0x0e, 0x00, 0x16, 0x00, 0x00, 0x00, 0x10, 0x00, 0x0c, 0x00, 
  0x0b, 0x00, 0x04, 0x00, 0x0e, 0x00, 0x00, 0x00, 0x18, 0x00, 0x00, 0x00, 
  0x00, 0x00, 0x00, 0x08, 0x18, 0x00, 0x00, 0x00, 0x1c, 0x00, 0x00, 0x00, 
  0x00, 0x00, 0x06, 0x00, 0x08, 0x00, 0x07, 0x00, 0x06, 0x00, 0x00, 0x00, 
  0x00, 0x00, 0x00, 0x01, 0x01, 0x00, 0x00, 0x00, 0x07, 0x00, 0x00, 0x00, 
  0x03, 0x00, 0x00, 0x00, 0x00, 0x00, 0x00, 0x00, 0x06, 0x00, 0x00, 0x00, 
  0x05, 0x00, 0x00, 0x00, 0x01, 0x00, 0x00, 0x00, 0x0a, 0x00, 0x00, 0x00, 
  0x01, 0x00, 0x00, 0x00, 0x00, 0x00, 0x00, 0x00, 0x0b, 0x00, 0x00, 0x00, 
  0xfc, 0x03, 0x00, 0x00, 0xa4, 0x03, 0x00, 0x00, 0x4c, 0x03, 0x00, 0x00, 
  0x10, 0x03, 0x00, 0x00, 0xb4, 0x02, 0x00, 0x00, 0x5c, 0x02, 0x00, 0x00, 
  0x10, 0x02, 0x00, 0x00, 0x7c, 0x01, 0x00, 0x00, 0xe0, 0x00, 0x00, 0x00, 
  0x60, 0x00, 0x00, 0x00, 0x04, 0x00, 0x00, 0x00, 0x46, 0xfc, 0xff, 0xff, 
  0x00, 0x00, 0x00, 0x01, 0x14, 0x00, 0x00, 0x00, 0x1c, 0x00, 0x00, 0x00, 
  0x1c, 0x00, 0x00, 0x00, 0x0b, 0x00, 0x00, 0x00, 0x34, 0x00, 0x00, 0x00, 
  0x02, 0x00, 0x00, 0x00, 0xff, 0xff, 0xff, 0xff, 0x05, 0x00, 0x00, 0x00, 
  0x30, 0xfc, 0xff, 0xff, 0x1b, 0x00, 0x00, 0x00, 0x53, 0x74, 0x61, 0x74, 
  0x65, 0x66, 0x75, 0x6c, 0x50, 0x61, 0x72, 0x74, 0x69, 0x74, 0x69, 0x6f, 
  0x6e, 0x65, 0x64, 0x43, 0x61, 0x6c, 0x6c, 0x5f, 0x31, 0x3a, 0x30, 0x00, 
  0x02, 0x00, 0x00, 0x00, 0x01, 0x00, 0x00, 0x00, 0x05, 0x00, 0x00, 0x00, 
  0x9e, 0xfc, 0xff, 0xff, 0x00, 0x00, 0x00, 0x01, 0x14, 0x00, 0x00, 0x00, 
  0x1c, 0x00, 0x00, 0x00, 0x1c, 0x00, 0x00, 0x00, 0x0a, 0x00, 0x00, 0x00, 
  0x58, 0x00, 0x00, 0x00, 0x02, 0x00, 0x00, 0x00, 0xff, 0xff, 0xff, 0xff, 
  0x05, 0x00, 0x00, 0x00, 0x88, 0xfc, 0xff, 0xff, 0x3c, 0x00, 0x00, 0x00, 
  0x73, 0x65, 0x71, 0x75, 0x65, 0x6e, 0x74, 0x69, 0x61, 0x6c, 0x5f, 0x31, 
  0x2f, 0x64, 0x65, 0x6e, 0x73, 0x65, 0x5f, 0x32, 0x5f, 0x31, 0x2f, 0x4d, 
  0x61, 0x74, 0x4d, 0x75, 0x6c, 0x3b, 0x73, 0x65, 0x71, 0x75, 0x65, 0x6e, 
  0x74, 0x69, 0x61, 0x6c, 0x5f, 0x31, 0x2f, 0x64, 0x65, 0x6e, 0x73, 0x65, 
  0x5f, 0x32, 0x5f, 0x31, 0x2f, 0x42, 0x69, 0x61, 0x73, 0x41, 0x64, 0x64, 
  0x00, 0x00, 0x00, 0x00, 0x02, 0x00, 0x00, 0x00, 0x01, 0x00, 0x00, 0x00, 
  0x05, 0x00, 0x00, 0x00, 0x1a, 0xfd, 0xff, 0xff, 0x00, 0x00, 0x00, 0x01, 
  0x14, 0x00, 0x00, 0x00, 0x1c, 0x00, 0x00, 0x00, 0x1c, 0x00, 0x00, 0x00, 
  0x09, 0x00, 0x00, 0x00, 0x74, 0x00, 0x00, 0x00, 0x02, 0x00, 0x00, 0x00, 
  0xff, 0xff, 0xff, 0xff, 0x10, 0x00, 0x00, 0x00, 0x04, 0xfd, 0xff, 0xff, 
  0x58, 0x00, 0x00, 0x00, 0x73, 0x65, 0x71, 0x75, 0x65, 0x6e, 0x74, 0x69, 
  0x61, 0x6c, 0x5f, 0x31, 0x2f, 0x64, 0x65, 0x6e, 0x73, 0x65, 0x5f, 0x31, 
  0x5f, 0x32, 0x2f, 0x4d, 0x61, 0x74, 0x4d, 0x75, 0x6c, 0x3b, 0x73, 0x65, 
  0x71, 0x75, 0x65, 0x6e, 0x74, 0x69, 0x61, 0x6c, 0x5f, 0x31, 0x2f, 0x64, 
  0x65, 0x6e, 0x73, 0x65, 0x5f, 0x31, 0x5f, 0x32, 0x2f, 0x52, 0x65, 0x6c, 
  0x75, 0x3b, 0x73, 0x65, 0x71, 0x75, 0x65, 0x6e, 0x74, 0x69, 0x61, 0x6c, 
  0x5f, 0x31, 0x2f, 0x64, 0x65, 0x6e, 0x73, 0x65, 0x5f, 0x31, 0x5f, 0x32, 
  0x2f, 0x42, 0x69, 0x61, 0x73, 0x41, 0x64, 0x64, 0x00, 0x00, 0x00, 0x00, 
  0x02, 0x00, 0x00, 0x00, 0x01, 0x00, 0x00, 0x00, 0x10, 0x00, 0x00, 0x00, 
  0xb2, 0xfd, 0xff, 0xff, 0x00, 0x00, 0x00, 0x01, 0x14, 0x00, 0x00, 0x00, 
  0x1c, 0x00, 0x00, 0x00, 0x1c, 0x00, 0x00, 0x00, 0x08, 0x00, 0x00, 0x00, 
  0x6c, 0x00, 0x00, 0x00, 0x02, 0x00, 0x00, 0x00, 0xff, 0xff, 0xff, 0xff, 
  0x10, 0x00, 0x00, 0x00, 0x9c, 0xfd, 0xff, 0xff, 0x52, 0x00, 0x00, 0x00, 
  0x73, 0x65, 0x71, 0x75, 0x65, 0x6e, 0x74, 0x69, 0x61, 0x6c, 0x5f, 0x31, 
  0x2f, 0x64, 0x65, 0x6e, 0x73, 0x65, 0x5f, 0x31, 0x2f, 0x4d, 0x61, 0x74, 
  0x4d, 0x75, 0x6c, 0x3b, 0x73, 0x65, 0x71, 0x75, 0x65, 0x6e, 0x74, 0x69, 
  0x61, 0x6c, 0x5f, 0x31, 0x2f, 0x64, 0x65, 0x6e, 0x73, 0x65, 0x5f, 0x31, 
  0x2f, 0x52, 0x65, 0x6c, 0x75, 0x3b, 0x73, 0x65, 0x71, 0x75, 0x65, 0x6e, 
  0x74, 0x69, 0x61, 0x6c, 0x5f, 0x31, 0x2f, 0x64, 0x65, 0x6e, 0x73, 0x65, 
  0x5f, 0x31, 0x2f, 0x42, 0x69, 0x61, 0x73, 0x41, 0x64, 0x64, 0x00, 0x00, 
  0x02, 0x00, 0x00, 0x00, 0x01, 0x00, 0x00, 0x00, 0x10, 0x00, 0x00, 0x00, 
  0x96, 0xfe, 0xff, 0xff, 0x00, 0x00, 0x00, 0x01, 0x10, 0x00, 0x00, 0x00, 
  0x10, 0x00, 0x00, 0x00, 0x07, 0x00, 0x00, 0x00, 0x28, 0x00, 0x00, 0x00, 
  0x1c, 0xfe, 0xff, 0xff, 0x1b, 0x00, 0x00, 0x00, 0x73, 0x65, 0x71, 0x75, 
  0x65, 0x6e, 0x74, 0x69, 0x61, 0x6c, 0x5f, 0x31, 0x2f, 0x64, 0x65, 0x6e, 
  0x73, 0x65, 0x5f, 0x31, 0x2f, 0x4d, 0x61, 0x74, 0x4d, 0x75, 0x6c, 0x00, 
  0x02, 0x00, 0x00, 0x00, 0x10, 0x00, 0x00, 0x00, 0x01, 0x00, 0x00, 0x00, 
  0xde, 0xfe, 0xff, 0xff, 0x00, 0x00, 0x00, 0x01, 0x10, 0x00, 0x00, 0x00, 
  0x10, 0x00, 0x00, 0x00, 0x06, 0x00, 0x00, 0x00, 0x38, 0x00, 0x00, 0x00, 
  0x64, 0xfe, 0xff, 0xff, 0x2b, 0x00, 0x00, 0x00, 0x73, 0x65, 0x71, 0x75, 
  0x65, 0x6e, 0x74, 0x69, 0x61, 0x6c, 0x5f, 0x31, 0x2f, 0x64, 0x65, 0x6e, 
  0x73, 0x65, 0x5f, 0x31, 0x2f, 0x42, 0x69, 0x61, 0x73, 0x41, 0x64, 0x64, 
  0x2f, 0x52, 0x65, 0x61, 0x64, 0x56, 0x61, 0x72, 0x69, 0x61, 0x62, 0x6c, 
  0x65, 0x4f, 0x70, 0x00, 0x01, 0x00, 0x00, 0x00, 0x10, 0x00, 0x00, 0x00, 
  0x32, 0xff, 0xff, 0xff, 0x00, 0x00, 0x00, 0x01, 0x10, 0x00, 0x00, 0x00, 
  0x10, 0x00, 0x00, 0x00, 0x05, 0x00, 0x00, 0x00, 0x3c, 0x00, 0x00, 0x00, 
  0xb8, 0xfe, 0xff, 0xff, 0x2d, 0x00, 0x00, 0x00, 0x73, 0x65, 0x71, 0x75, 
  0x65, 0x6e, 0x74, 0x69, 0x61, 0x6c, 0x5f, 0x31, 0x2f, 0x64, 0x65, 0x6e, 
  0x73, 0x65, 0x5f, 0x31, 0x5f, 0x32, 0x2f, 0x42, 0x69, 0x61, 0x73, 0x41, 
  0x64, 0x64, 0x2f, 0x52, 0x65, 0x61, 0x64, 0x56, 0x61, 0x72, 0x69, 0x61, 
  0x62, 0x6c, 0x65, 0x4f, 0x70, 0x00, 0x00, 0x00, 0x01, 0x00, 0x00, 0x00, 
  0x10, 0x00, 0x00, 0x00, 0x8a, 0xff, 0xff, 0xff, 0x00, 0x00, 0x00, 0x01, 
  0x10, 0x00, 0x00, 0x00, 0x10, 0x00, 0x00, 0x00, 0x04, 0x00, 0x00, 0x00, 
  0x1c, 0x00, 0x00, 0x00, 0x10, 0xff, 0xff, 0xff, 0x0f, 0x00, 0x00, 0x00, 
  0x61, 0x72, 0x69, 0x74, 0x68, 0x2e, 0x63, 0x6f, 0x6e, 0x73, 0x74, 0x61, 
  0x6e, 0x74, 0x32, 0x00, 0x01, 0x00, 0x00, 0x00, 0x05, 0x00, 0x00, 0x00, 
  0xc2, 0xff, 0xff, 0xff, 0x00, 0x00, 0x00, 0x01, 0x10, 0x00, 0x00, 0x00, 
  0x10, 0x00, 0x00, 0x00, 0x03, 0x00, 0x00, 0x00, 0x1c, 0x00, 0x00, 0x00, 
  0x48, 0xff, 0xff, 0xff, 0x0f, 0x00, 0x00, 0x00, 0x61, 0x72, 0x69, 0x74, 
  0x68, 0x2e, 0x63, 0x6f, 0x6e, 0x73, 0x74, 0x61, 0x6e, 0x74, 0x31, 0x00, 
  0x02, 0x00, 0x00, 0x00, 0x10, 0x00, 0x00, 0x00, 0x10, 0x00, 0x00, 0x00, 
  0x00, 0x00, 0x16, 0x00, 0x18, 0x00, 0x14, 0x00, 0x00, 0x00, 0x10, 0x00, 
  0x0c, 0x00, 0x08, 0x00, 0x00, 0x00, 0x00, 0x00, 0x00, 0x00, 0x07, 0x00, 
  0x16, 0x00, 0x00, 0x00, 0x00, 0x00, 0x00, 0x01, 0x10, 0x00, 0x00, 0x00, 
  0x10, 0x00, 0x00, 0x00, 0x02, 0x00, 0x00, 0x00, 0x1c, 0x00, 0x00, 0x00, 
  0x9c, 0xff, 0xff, 0xff, 0x0e, 0x00, 0x00, 0x00, 0x61, 0x72, 0x69, 0x74, 
  0x68, 0x2e, 0x63, 0x6f, 0x6e, 0x73, 0x74, 0x61, 0x6e, 0x74, 0x00, 0x00, 
  0x02, 0x00, 0x00, 0x00, 0x05, 0x00, 0x00, 0x00, 0x10, 0x00, 0x00, 0x00, 
  0x00, 0x00, 0x16, 0x00, 0x1c, 0x00, 0x18, 0x00, 0x00, 0x00, 0x14, 0x00, 
  0x10, 0x00, 0x0c, 0x00, 0x00, 0x00, 0x00, 0x00, 0x08, 0x00, 0x07, 0x00, 
  0x16, 0x00, 0x00, 0x00, 0x00, 0x00, 0x00, 0x01, 0x14, 0x00, 0x00, 0x00, 
  0x20, 0x00, 0x00, 0x00, 0x20, 0x00, 0x00, 0x00, 0x01, 0x00, 0x00, 0x00, 
  0x3c, 0x00, 0x00, 0x00, 0x02, 0x00, 0x00, 0x00, 0xff, 0xff, 0xff, 0xff, 
  0x01, 0x00, 0x00, 0x00, 0x04, 0x00, 0x04, 0x00, 0x04, 0x00, 0x00, 0x00, 
  0x1e, 0x00, 0x00, 0x00, 0x73, 0x65, 0x72, 0x76, 0x69, 0x6e, 0x67, 0x5f, 
  0x64, 0x65, 0x66, 0x61, 0x75, 0x6c, 0x74, 0x5f, 0x6b, 0x65, 0x72, 0x61, 
  0x73, 0x5f, 0x74, 0x65, 0x6e, 0x73, 0x6f, 0x72, 0x3a, 0x30, 0x00, 0x00, 
  0x02, 0x00, 0x00, 0x00, 0x01, 0x00, 0x00, 0x00, 0x01, 0x00, 0x00, 0x00, 
  0x02, 0x00, 0x00, 0x00, 0x20, 0x00, 0x00, 0x00, 0x04, 0x00, 0x00, 0x00, 
  0xf4, 0xff, 0xff, 0xff, 0x19, 0x00, 0x00, 0x00, 0x00, 0x00, 0x00, 0x19, 
  0x0c, 0x00, 0x0c, 0x00, 0x0b, 0x00, 0x00, 0x00, 0x00, 0x00, 0x04, 0x00, 
  0x0c, 0x00, 0x00, 0x00, 0x09, 0x00, 0x00, 0x00, 0x00, 0x00, 0x00, 0x09

};

const unsigned int horizontal_model_data_len = 3660;

#endif // HORIZONTAL_MODEL_DATA_H
