// Auto-generated file. Do not edit!
#ifndef ROTATIONAL_MODEL_DATA_H
#define ROTATIONAL_MODEL_DATA_H

const unsigned char rotational_model_data[] = {
  0x1c, 0x00, 0x00, 0x00, 0x54, 0x46, 0x4c, 0x33, 0x14, 0x00, 0x20, 0x00, 
  0x1c, 0x00, 0x18, 0x00, 0x14, 0x00, 0x10, 0x00, 0x0c, 0x00, 0x00, 0x00, 
  0x08, 0x00, 0x04, 0x00, 0x14, 0x00, 0x00, 0x00, 0x1c, 0x00, 0x00, 0x00, 
  0x98, 0x00, 0x00, 0x00, 0xf0, 0x00, 0x00, 0x00, 0x24, 0x08, 0x00, 0x00, 
  0x34, 0x08, 0x00, 0x00, 0xe8, 0x0d, 0x00, 0x00, 0x03, 0x00, 0x00, 0x00, 
  0x01, 0x00, 0x00, 0x00, 0x10, 0x00, 0x00, 0x00, 0x00, 0x00, 0x0a, 0x00, 
  0x10, 0x00, 0x0c, 0x00, 0x08, 0x00, 0x04, 0x00, 0x0a, 0x00, 0x00, 0x00, 
  0x0c, 0x00, 0x00, 0x00, 0x1c, 0x00, 0x00, 0x00, 0x3c, 0x00, 0x00, 0x00, 
  0x0f, 0x00, 0x00, 0x00, 0x73, 0x65, 0x72, 0x76, 0x69, 0x6e, 0x67, 0x5f, 
  0x64, 0x65, 0x66, 0x61, 0x75, 0x6c, 0x74, 0x00, 0x01, 0x00, 0x00, 0x00, 
  0x04, 0x00, 0x00, 0x00, 0x90, 0xff, 0xff, 0xff, 0x0a, 0x00, 0x00, 0x00, 
  0x04, 0x00, 0x00, 0x00, 0x08, 0x00, 0x00, 0x00, 0x6f, 0x75, 0x74, 0x70, 
  0x75, 0x74, 0x5f, 0x30, 0x00, 0x00, 0x00, 0x00, 0x01, 0x00, 0x00, 0x00, 
  0x04, 0x00, 0x00, 0x00, 0xc2, 0xf7, 0xff, 0xff, 0x04, 0x00, 0x00, 0x00, 
  0x0c, 0x00, 0x00, 0x00, 0x6b, 0x65, 0x72, 0x61, 0x73, 0x5f, 0x74, 0x65, 
  0x6e, 0x73, 0x6f, 0x72, 0x00, 0x00, 0x00, 0x00, 0x02, 0x00, 0x00, 0x00, 
  0x34, 0x00, 0x00, 0x00, 0x04, 0x00, 0x00, 0x00, 0xdc, 0xff, 0xff, 0xff, 
  0x0d, 0x00, 0x00, 0x00, 0x04, 0x00, 0x00, 0x00, 0x13, 0x00, 0x00, 0x00, 
  0x43, 0x4f, 0x4e, 0x56, 0x45, 0x52, 0x53, 0x49, 0x4f, 0x4e, 0x5f, 0x4d, 
  0x45, 0x54, 0x41, 0x44, 0x41, 0x54, 0x41, 0x00, 0x08, 0x00, 0x0c, 0x00, 
  0x08, 0x00, 0x04, 0x00, 0x08, 0x00, 0x00, 0x00, 0x0c, 0x00, 0x00, 0x00, 
  0x04, 0x00, 0x00, 0x00, 0x13, 0x00, 0x00, 0x00, 0x6d, 0x69, 0x6e, 0x5f, 
  0x72, 0x75, 0x6e, 0x74, 0x69, 0x6d, 0x65, 0x5f, 0x76, 0x65, 0x72, 0x73, 
  0x69, 0x6f, 0x6e, 0x00, 0x0e, 0x00, 0x00, 0x00, 0x30, 0x07, 0x00, 0x00, 
  0x28, 0x07, 0x00, 0x00, 0xd8, 0x05, 0x00, 0x00, 0xc8, 0x01, 0x00, 0x00, 
  0xa4, 0x01, 0x00, 0x00, 0x54, 0x01, 0x00, 0x00, 0x04, 0x01, 0x00, 0x00, 
  0xb4, 0x00, 0x00, 0x00, 0xac, 0x00, 0x00, 0x00, 0xa4, 0x00, 0x00, 0x00, 
  0x9c, 0x00, 0x00, 0x00, 0x94, 0x00, 0x00, 0x00, 0x74, 0x00, 0x00, 0x00, 
  0x04, 0x00, 0x00, 0x00, 0x76, 0xf8, 0xff, 0xff, 0x04, 0x00, 0x00, 0x00, 
  0x60, 0x00, 0x00, 0x00, 0x0c, 0x00, 0x00, 0x00, 0x08, 0x00, 0x0e, 0x00, 
  0x08, 0x00, 0x04, 0x00, 0x08, 0x00, 0x00, 0x00, 0x10, 0x00, 0x00, 0x00, 
  0x28, 0x00, 0x00, 0x00, 0x00, 0x00, 0x06, 0x00, 0x08, 0x00, 0x04, 0x00, 
  0x06, 0x00, 0x00, 0x00, 0x04, 0x00, 0x00, 0x00, 0x01, 0x00, 0x00, 0x00, 
  0xea, 0x03, 0x00, 0x00, 0x0c, 0x00, 0x18, 0x00, 0x14, 0x00, 0x10, 0x00, 
  0x0c, 0x00, 0x04, 0x00, 0x0c, 0x00, 0x00, 0x00, 0x25, 0x59, 0x3f, 0x0f, 
  0xc6, 0x8a, 0x19, 0x76, 0x02, 0x00, 0x00, 0x00, 0x02, 0x00, 0x00, 0x00, 
  0x04, 0x00, 0x00, 0x00, 0x06, 0x00, 0x00, 0x00, 0x32, 0x2e, 0x31, 0x38, 
  0x2e, 0x30, 0x00, 0x00, 0xe2, 0xf8, 0xff, 0xff, 0x04, 0x00, 0x00, 0x00, 
  0x10, 0x00, 0x00, 0x00, 0x31, 0x2e, 0x35, 0x2e, 0x30, 0x00, 0x00, 0x00, 
  0x00, 0x00, 0x00, 0x00, 0x00, 0x00, 0x00, 0x00, 0xf8, 0xf3, 0xff, 0xff, 
  0xfc, 0xf3, 0xff, 0xff, 0x00, 0xf4, 0xff, 0xff, 0x04, 0xf4, 0xff, 0xff, 
  0x0e, 0xf9, 0xff, 0xff, 0x04, 0x00, 0x00, 0x00, 0x40, 0x00, 0x00, 0x00, 
  0x31, 0xeb, 0x95, 0x3e, 0xa2, 0xbc, 0x1a, 0xbe, 0x13, 0x6d, 0x77, 0x3e, 
  0x87, 0xcb, 0xf5, 0x3d, 0xec, 0xf9, 0x5e, 0xbe, 0x00, 0xe6, 0x92, 0xbb, 
  0xe4, 0x2a, 0x27, 0x3f, 0x55, 0x1a, 0x9a, 0x3e, 0x6e, 0x6c, 0xe4, 0x3e, 
  0xab, 0x4a, 0x1f, 0x3e, 0x0c, 0xf7, 0xae, 0xbe, 0x3f, 0xd1, 0xf2, 0x3e, 
  0xd0, 0xb1, 0xcf, 0xbd, 0xd4, 0x9e, 0xc8, 0xbe, 0xfd, 0x37, 0xb4, 0x3e, 
  0xd1, 0xa8, 0x9f, 0x3e, 0x5a, 0xf9, 0xff, 0xff, 0x04, 0x00, 0x00, 0x00, 
  0x40, 0x00, 0x00, 0x00, 0x84, 0xf3, 0xc2, 0xbf, 0x00, 0x00, 0x00, 0x00, 
  0xfd, 0x62, 0xa4, 0xbf, 0x9b, 0x09, 0x64, 0xbf, 0x00, 0x00, 0x00, 0x00, 
  0x00, 0x00, 0x00, 0x00, 0x08, 0xed, 0xea, 0x3f, 0x08, 0x1a, 0xd9, 0xbf, 
  0xfd, 0xe4, 0xcf, 0xbf, 0xf7, 0xf2, 0x9f, 0x3f, 0x00, 0x00, 0x00, 0x00, 
  0x92, 0xb7, 0x09, 0x3f, 0x00, 0x00, 0x00, 0x00, 0x00, 0x00, 0x00, 0x00, 
  0x79, 0x9b, 0xa6, 0x3f, 0x40, 0x08, 0xc3, 0xbf, 0xa6, 0xf9, 0xff, 0xff, 
  0x04, 0x00, 0x00, 0x00, 0x40, 0x00, 0x00, 0x00, 0x72, 0x73, 0x7a, 0xba, 
  0x57, 0x90, 0xc9, 0x3d, 0x00, 0x00, 0x00, 0x00, 0x00, 0x00, 0x00, 0x00, 
  0x00, 0x00, 0x00, 0x00, 0x5e, 0xb0, 0xdc, 0xbc, 0xe5, 0xe5, 0x0c, 0xbf, 
  0x5d, 0xaf, 0xf3, 0x3f, 0xff, 0xeb, 0xcd, 0xbc, 0x00, 0x00, 0x00, 0x00, 
  0x00, 0x00, 0x00, 0x00, 0x72, 0xad, 0x95, 0xbf, 0x00, 0x00, 0x00, 0x00, 
  0x63, 0x80, 0x91, 0xbc, 0x3d, 0x1a, 0x18, 0x3f, 0x27, 0x27, 0xd6, 0x3e, 
  0xf2, 0xf9, 0xff, 0xff, 0x04, 0x00, 0x00, 0x00, 0x14, 0x00, 0x00, 0x00, 
  0x4f, 0xd1, 0x84, 0x3f, 0xcd, 0x21, 0xdb, 0xbe, 0x54, 0x8d, 0x39, 0x3d, 
  0x9a, 0xbc, 0xfa, 0x3e, 0x13, 0xc9, 0x65, 0xbf, 0x12, 0xfa, 0xff, 0xff, 
  0x04, 0x00, 0x00, 0x00, 0x00, 0x04, 0x00, 0x00, 0xeb, 0x2a, 0x2b, 0xbe, 
  0xfc, 0xe7, 0xd8, 0xbd, 0x4a, 0xd2, 0x31, 0x3e, 0x16, 0x28, 0x56, 0xbe, 
  0x51, 0xb9, 0xd2, 0xbe, 0xe4, 0xe0, 0x27, 0xbe, 0xbc, 0xc7, 0xcc, 0x3d, 
  0x92, 0x16, 0xd9, 0xbe, 0xd4, 0xa6, 0x37, 0x3e, 0x0a, 0x7a, 0x7a, 0xbe, 
  0x40, 0x64, 0xa5, 0xbe, 0xfc, 0x10, 0x2e, 0x3e, 0x80, 0x52, 0x69, 0xbe, 
  0x88, 0xa1, 0xd0, 0xbe, 0x95, 0x0d, 0x6b, 0xbe, 0xcb, 0x66, 0x7e, 0xbd, 
  0x63, 0x8f, 0x2b, 0x3e, 0xde, 0x92, 0x3a, 0x3e, 0x29, 0xd3, 0x9e, 0x3e, 
  0xe7, 0x65, 0xc0, 0x3e, 0x40, 0xe5, 0xf2, 0x3c, 0x14, 0x95, 0xa2, 0xbd, 
  0x03, 0xa2, 0xe5, 0xbe, 0x3f, 0xec, 0x57, 0x3e, 0x5c, 0x00, 0x92, 0x3e, 
  0x02, 0xd4, 0x44, 0xbe, 0x2c, 0x32, 0x9d, 0xbe, 0x53, 0xeb, 0xb2, 0x3e, 
  0xca, 0xa5, 0x0c, 0xbe, 0x39, 0x01, 0xb9, 0xbe, 0x23, 0x3c, 0x73, 0xbe, 
  0x96, 0xc0, 0x6b, 0xbc, 0xc2, 0x32, 0x76, 0xbe, 0xc1, 0x61, 0xa1, 0xbe, 
  0x84, 0xcd, 0x2d, 0xbe, 0x2a, 0x2a, 0x75, 0x3e, 0x28, 0x8f, 0x08, 0xbd, 
  0xc8, 0x8b, 0x89, 0xbd, 0x00, 0x8c, 0x9e, 0x3c, 0x56, 0x2d, 0x6d, 0x3e, 
  0x4e, 0x5a, 0x17, 0x3e, 0x1d, 0x2e, 0x81, 0x3e, 0xd1, 0x81, 0x93, 0x3e, 
  0x90, 0x49, 0x0f, 0xbe, 0x8c, 0x48, 0xdf, 0xbd, 0xf9, 0x84, 0xc7, 0xbe, 
  0xfa, 0xe0, 0xcf, 0xbe, 0xec, 0x7d, 0xbd, 0xbd, 0x2d, 0x65, 0xa0, 0x3e, 
  0xfc, 0x15, 0x25, 0xbe, 0x20, 0x8d, 0x80, 0xbe, 0x76, 0xf1, 0x33, 0xbe, 
  0xd4, 0xea, 0x89, 0x3d, 0x71, 0xab, 0xc7, 0x3e, 0x5b, 0xd6, 0x8c, 0xbe, 
  0xaa, 0x7c, 0x8e, 0xbe, 0x8a, 0xf0, 0x9e, 0xbe, 0xf2, 0x87, 0x3d, 0x3e, 
  0x84, 0x75, 0x98, 0xbe, 0x95, 0x9b, 0x88, 0x3e, 0x9c, 0xc6, 0xfc, 0x3d, 
  0xc4, 0xed, 0xcc, 0xbd, 0x40, 0x5d, 0x36, 0x3c, 0xfc, 0x55, 0xe0, 0x3d, 
  0x93, 0xcd, 0x94, 0xbe, 0xd6, 0xbc, 0x5c, 0x3e, 0x46, 0x8d, 0xc8, 0xbe, 
  0xc5, 0xb5, 0xb3, 0x3e, 0x3c, 0xd6, 0x5a, 0xbe, 0xb8, 0x12, 0x39, 0x3d, 
  0x61, 0xde, 0xd7, 0xbe, 0x0f, 0x1a, 0x96, 0x3e, 0xfb, 0x20, 0xc1, 0x3e, 
  0xbf, 0x2b, 0x89, 0x3e, 0x15, 0x15, 0x82, 0x3e, 0x60, 0x39, 0x89, 0xbe, 
  0x1b, 0xc2, 0xc1, 0xbe, 0xb4, 0xf0, 0xfe, 0xbd, 0xf4, 0x71, 0xea, 0x3d, 
  0x26, 0x93, 0x29, 0xbe, 0x9e, 0xa1, 0x78, 0xbe, 0xaa, 0x65, 0x72, 0x3e, 
  0x7a, 0x14, 0x1e, 0x3e, 0xb0, 0x56, 0x9a, 0xbc, 0xf2, 0x25, 0x6b, 0x3e, 
  0xa7, 0x05, 0xbf, 0xbe, 0x20, 0x6a, 0x93, 0x3e, 0xcb, 0xc6, 0x5f, 0xbe, 
  0xee, 0x2b, 0xc3, 0xbe, 0x65, 0x7e, 0xb1, 0xbe, 0x5c, 0x6d, 0x54, 0xbe, 
  0x8d, 0x91, 0xb6, 0xbe, 0xaa, 0x6c, 0x54, 0x3e, 0xd3, 0x6b, 0xd2, 0x3e, 
  0xa2, 0x73, 0xf1, 0xbd, 0x56, 0x77, 0x88, 0xbe, 0xe2, 0xdd, 0xa1, 0xbb, 
  0xe0, 0xbe, 0xaa, 0x3c, 0x41, 0x61, 0x64, 0x3e, 0xe6, 0x10, 0x99, 0xbe, 
  0xdd, 0xbb, 0x8f, 0xbe, 0x5e, 0x07, 0x33, 0x3e, 0xaa, 0xb3, 0x6d, 0x3d, 
  0x8e, 0x0f, 0xc9, 0xbd, 0x41, 0xac, 0xcf, 0x3e, 0xcd, 0x3a, 0xaf, 0x3e, 
  0x00, 0x6c, 0x6b, 0x3d, 0xcb, 0xab, 0x93, 0x3b, 0xd7, 0x72, 0x81, 0xbe, 
  0x9f, 0x10, 0xc3, 0x3e, 0xb8, 0xe9, 0x16, 0x3d, 0x11, 0x58, 0x8a, 0x3d, 
  0xde, 0xdb, 0xd0, 0xbe, 0x49, 0x35, 0x9b, 0x3e, 0x83, 0xed, 0x2f, 0xbe, 
  0x69, 0x8a, 0xf0, 0xbd, 0xc3, 0xfc, 0xb3, 0x3e, 0x05, 0xc0, 0x98, 0x3e, 
  0x9b, 0x03, 0xca, 0x3e, 0x33, 0xba, 0xdc, 0xbe, 0xc3, 0xf4, 0x99, 0xbe, 
  0xf6, 0x5d, 0x93, 0x3e, 0x43, 0xff, 0x7e, 0xbe, 0x86, 0xaa, 0x8f, 0x3e, 
  0x2c, 0x66, 0xcc, 0xbd, 0x2e, 0x84, 0x08, 0x3e, 0x2d, 0xbe, 0x16, 0x3e, 
  0x82, 0x80, 0x58, 0xbe, 0x3a, 0xcf, 0xd3, 0xbe, 0xad, 0x96, 0x5c, 0xbe, 
  0x8e, 0x4c, 0x16, 0x3e, 0x38, 0xd1, 0x77, 0x3d, 0xfa, 0x92, 0x34, 0xbe, 
  0x62, 0x6e, 0x47, 0x3e, 0x1f, 0xd8, 0x98, 0x3d, 0x85, 0xff, 0xe1, 0xbe, 
  0x1e, 0xf3, 0x18, 0xbe, 0x5a, 0x72, 0xb9, 0xbe, 0x46, 0xd0, 0x48, 0x3e, 
  0xaf, 0xa9, 0xdf, 0xbe, 0x0c, 0x82, 0xd5, 0x3d, 0x18, 0xd0, 0x2c, 0xbe, 
  0xc5, 0x66, 0x9b, 0x3e, 0xb0, 0x4a, 0x99, 0xbd, 0xf4, 0x95, 0x94, 0xbd, 
  0x6e, 0x0a, 0x7a, 0x3e, 0xa9, 0x2a, 0xdb, 0xbe, 0xa8, 0x4e, 0xb2, 0xbe, 
  0xa3, 0x46, 0xa6, 0x3e, 0xe0, 0x60, 0x0a, 0xbe, 0x0c, 0x2a, 0xae, 0xbe, 
  0x94, 0xba, 0xca, 0xbd, 0x84, 0x62, 0xa7, 0xbe, 0x43, 0x90, 0x81, 0x3e, 
  0xb0, 0xc5, 0xf9, 0xbd, 0x3e, 0xfd, 0x4b, 0x3e, 0xee, 0x48, 0x0d, 0xbe, 
  0x0c, 0x8a, 0xf3, 0x3d, 0x1c, 0xb4, 0xa1, 0xbe, 0xc2, 0xb1, 0x6d, 0xbe, 
  0x21, 0x87, 0x96, 0x3e, 0x9f, 0xa5, 0x9d, 0x3e, 0xf3, 0x24, 0xaa, 0xbe, 
  0x0e, 0x09, 0x6f, 0xbe, 0xf0, 0x12, 0x72, 0xbd, 0xe0, 0x93, 0xc8, 0xbe, 
  0xd2, 0x9c, 0x8a, 0xbe, 0x5e, 0x43, 0x77, 0xbe, 0xe2, 0xa1, 0x9f, 0xbe, 
  0x32, 0x50, 0x7a, 0x3e, 0x9d, 0xfb, 0x53, 0xbe, 0xee, 0x96, 0x3e, 0x3e, 
  0x7e, 0x83, 0x5e, 0x3e, 0x2e, 0x27, 0x95, 0xbe, 0xa0, 0x90, 0x67, 0xbd, 
  0x8c, 0x05, 0x54, 0xbe, 0x0b, 0xa2, 0x5f, 0x3e, 0x1a, 0x06, 0xc7, 0xbe, 
  0x2c, 0x48, 0x5a, 0x3e, 0x1e, 0x68, 0x6d, 0x3e, 0x99, 0xb5, 0x67, 0xbe, 
  0x4f, 0x97, 0x98, 0x3e, 0xae, 0x56, 0xab, 0xbe, 0xc6, 0x10, 0xb7, 0x3b, 
  0x06, 0xe4, 0x57, 0x3d, 0x5d, 0x08, 0x8c, 0x3e, 0x64, 0x1c, 0xc3, 0x3d, 
  0x51, 0x74, 0xb9, 0x3e, 0xcb, 0x43, 0xd4, 0xbe, 0x83, 0x9d, 0x5a, 0xbe, 
  0x29, 0x57, 0xcb, 0xbe, 0x73, 0xa2, 0xaf, 0x3e, 0x35, 0xe4, 0x80, 0x3e, 
  0xe8, 0x16, 0x22, 0xbe, 0x70, 0x89, 0x5f, 0xbd, 0x30, 0x16, 0x16, 0xbe, 
  0x07, 0x80, 0x3b, 0xbe, 0x38, 0xc1, 0x04, 0xbe, 0xe8, 0xb4, 0x3a, 0xbd, 
  0xbb, 0x1d, 0x94, 0x3e, 0xb0, 0x47, 0x85, 0xbc, 0x8c, 0x88, 0x94, 0xbe, 
  0x43, 0xa3, 0xa3, 0x3e, 0xef, 0xd7, 0x98, 0xbe, 0x40, 0x23, 0x0e, 0xbd, 
  0xe0, 0x98, 0xba, 0xbd, 0x4c, 0x15, 0x9b, 0xbe, 0x82, 0xe3, 0x0a, 0x3e, 
  0x94, 0x3a, 0x36, 0xbe, 0x60, 0x1a, 0xb3, 0xbe, 0x43, 0xa1, 0x23, 0xbe, 
  0x26, 0x9f, 0x11, 0xbe, 0x6f, 0xb7, 0xcc, 0x3e, 0x74, 0xb1, 0xee, 0x3d, 
  0x79, 0x3f, 0x81, 0x3e, 0x9d, 0xba, 0x4a, 0x3e, 0xf3, 0xdd, 0x1f, 0x3e, 
  0xc0, 0xa4, 0xc6, 0xbe, 0x24, 0xd4, 0x94, 0xbd, 0x97, 0x2a, 0xfe, 0xbd, 
  0x5b, 0x62, 0xa2, 0x3e, 0x66, 0xbb, 0x04, 0xbe, 0x9b, 0xb8, 0x98, 0xbe, 
  0x88, 0xc8, 0x64, 0xbe, 0x7f, 0x98, 0x8f, 0x3e, 0x23, 0xb8, 0xdc, 0xbe, 
  0xe2, 0xd8, 0xc5, 0xbe, 0x14, 0x5a, 0x24, 0x3e, 0x21, 0xff, 0x8c, 0x3e, 
  0x36, 0xfd, 0x1c, 0x3e, 0x3c, 0x3f, 0x74, 0xbd, 0x48, 0x76, 0x07, 0x3e, 
  0xe9, 0x88, 0x0f, 0x3d, 0x9c, 0xac, 0x53, 0x3e, 0x25, 0x34, 0xb4, 0xbe, 
  0x1e, 0xc4, 0x3f, 0xbe, 0xfa, 0xac, 0x99, 0xbe, 0x6c, 0x30, 0xd4, 0x3d, 
  0x29, 0x4d, 0x08, 0x3e, 0x1d, 0xb4, 0x83, 0x3e, 0x80, 0x95, 0xe1, 0xbe, 
  0x40, 0xde, 0xc0, 0x3c, 0xd2, 0x2f, 0x98, 0xbb, 0xe8, 0x59, 0xb2, 0xbe, 
  0x7f, 0x2d, 0xd3, 0x3e, 0xf3, 0x61, 0xaf, 0xbe, 0xea, 0xc1, 0x53, 0x3e, 
  0xcf, 0xef, 0x09, 0x3e, 0x9a, 0x5f, 0xc7, 0x3e, 0x88, 0xd7, 0x00, 0x3e, 
  0xa7, 0xe0, 0x71, 0xbe, 0x89, 0xa5, 0x80, 0xbd, 0x36, 0xa2, 0x0d, 0xbe, 
  0x30, 0xc4, 0xf9, 0x3c, 0x2e, 0x37, 0xdc, 0xbe, 0xff, 0x33, 0xce, 0x3e, 
  0x1e, 0xfe, 0xff, 0xff, 0x04, 0x00, 0x00, 0x00, 0x40, 0x01, 0x00, 0x00, 
  0xf3, 0xfa, 0xf7, 0x3e, 0xb6, 0xb3, 0x0b, 0xbf, 0xa6, 0x36, 0xb2, 0x3e, 
  0x18, 0xbd, 0xdf, 0xbd, 0x00, 0x04, 0x2b, 0xbc, 0x71, 0xc3, 0xf4, 0xbe, 
  0x31, 0xba, 0x7d, 0xbe, 0xe1, 0x26, 0x02, 0x40, 0x0d, 0x5b, 0xb4, 0xbe, 
  0xba, 0x7f, 0x4b, 0xbe, 0x90, 0xdd, 0x83, 0xbd, 0x33, 0x25, 0x9e, 0xbe, 
  0x08, 0x52, 0x58, 0x3e, 0x72, 0xa5, 0xf2, 0xbe, 0x38, 0x3d, 0x06, 0xbe, 
  0x72, 0xa9, 0x07, 0xbe, 0xc1, 0xb1, 0xb2, 0x3c, 0x14, 0x63, 0x4e, 0xbe, 
  0xf0, 0x79, 0x3b, 0x3e, 0x40, 0x07, 0xe9, 0xbd, 0x8a, 0x7d, 0xfb, 0x3e, 
  0x7c, 0x44, 0x6a, 0x3e, 0xa1, 0xc2, 0xae, 0xbe, 0x3d, 0x4d, 0xe1, 0xbe, 
  0x84, 0xa0, 0xf3, 0xbe, 0xdb, 0x93, 0xff, 0xbe, 0xbc, 0xa9, 0x92, 0xbd, 
  0x1b, 0x4b, 0x1e, 0x3e, 0x64, 0xd5, 0x6e, 0x3e, 0xc8, 0x3b, 0xcd, 0xbd, 
  0x84, 0xef, 0xde, 0xbb, 0xda, 0xf1, 0x95, 0x3b, 0xec, 0xfb, 0x53, 0x3e, 
  0x0f, 0xd6, 0x6d, 0xbe, 0xe2, 0xf3, 0x02, 0xbe, 0x19, 0x62, 0x08, 0x3f, 
  0x28, 0x5f, 0xc4, 0x3e, 0xa2, 0x24, 0xef, 0x3e, 0x30, 0xcc, 0x9e, 0xbe, 
  0x78, 0x49, 0x2e, 0x3e, 0xd3, 0x78, 0x07, 0xbf, 0xa0, 0xbe, 0x17, 0x3e, 
  0xc8, 0xea, 0xe2, 0xbe, 0x3a, 0x09, 0x87, 0x3c, 0xd6, 0xd3, 0xb0, 0x3e, 
  0x6c, 0x93, 0xe6, 0xbe, 0xd1, 0x1b, 0xd5, 0xbe, 0x65, 0xc2, 0x90, 0x3e, 
  0x58, 0x0d, 0xe4, 0xbe, 0x93, 0x7a, 0xfc, 0xbd, 0x58, 0xb7, 0x6a, 0xbe, 
  0x02, 0x82, 0xf7, 0x3e, 0x20, 0x3e, 0xcd, 0xbe, 0x22, 0xbc, 0xe1, 0x3c, 
  0xec, 0x67, 0xd8, 0xbe, 0x3c, 0xcf, 0x7f, 0x3f, 0xc1, 0x57, 0x82, 0x3e, 
  0x45, 0xa4, 0x05, 0x3f, 0x5c, 0xd7, 0xf4, 0xbe, 0x6e, 0x99, 0x90, 0xbe, 
  0xc0, 0x1b, 0xe9, 0x3d, 0x00, 0xd6, 0xe8, 0xbe, 0x2a, 0x29, 0x05, 0x3f, 
  0x55, 0x19, 0xf3, 0xbd, 0x8e, 0xfa, 0xad, 0x3e, 0xb4, 0xfa, 0xb7, 0xbe, 
  0xe0, 0x76, 0xf3, 0xbe, 0x53, 0x9a, 0x08, 0x3f, 0x93, 0x1e, 0x88, 0xbe, 
  0xc5, 0x8e, 0x90, 0x3e, 0xa9, 0x64, 0x93, 0xbd, 0x0d, 0x4c, 0xb2, 0xbf, 
  0x66, 0xfe, 0x01, 0xbf, 0x59, 0x09, 0x05, 0x3f, 0xc8, 0x70, 0x2f, 0x3e, 
  0x7c, 0x19, 0x01, 0x3f, 0x80, 0x12, 0x00, 0xbc, 0x1e, 0x86, 0xa2, 0x3e, 
  0x06, 0x77, 0xd2, 0xbe, 0x5d, 0xe7, 0xc5, 0xbe, 0x64, 0xfa, 0xff, 0xff, 
  0x68, 0xfa, 0xff, 0xff, 0x0f, 0x00, 0x00, 0x00, 0x4d, 0x4c, 0x49, 0x52, 
  0x20, 0x43, 0x6f, 0x6e, 0x76, 0x65, 0x72, 0x74, 0x65, 0x64, 0x2e, 0x00, 
  0x01, 0x00, 0x00, 0x00, 0x14, 0x00, 0x00, 0x00, 0x00, 0x00, 0x0e, 0x00, 
  0x18, 0x00, 0x14, 0x00, 0x10, 0x00, 0x0c, 0x00, 0x08, 0x00, 0x04, 0x00, 
  0x0e, 0x00, 0x00, 0x00, 0x14, 0x00, 0x00, 0x00, 0x1c, 0x00, 0x00, 0x00, 
  0x24, 0x01, 0x00, 0x00, 0x28, 0x01, 0x00, 0x00, 0x2c, 0x01, 0x00, 0x00, 
  0x04, 0x00, 0x00, 0x00, 0x6d, 0x61, 0x69, 0x6e, 0x00, 0x00, 0x00, 0x00, 
  0x04, 0x00, 0x00, 0x00, 0xcc, 0x00, 0x00, 0x00, 0x84, 0x00, 0x00, 0x00, 
  0x50, 0x00, 0x00, 0x00, 0x14, 0x00, 0x00, 0x00, 0x00, 0x00, 0x0e, 0x00, 
  0x1a, 0x00, 0x14, 0x00, 0x10, 0x00, 0x0c, 0x00, 0x0b, 0x00, 0x04, 0x00, 
  0x0e, 0x00, 0x00, 0x00, 0x1c, 0x00, 0x00, 0x00, 0x00, 0x00, 0x00, 0x09, 
  0x1c, 0x00, 0x00, 0x00, 0x20, 0x00, 0x00, 0x00, 0x01, 0x00, 0x00, 0x00, 
  0x00, 0x00, 0x06, 0x00, 0x08, 0x00, 0x04, 0x00, 0x06, 0x00, 0x00, 0x00, 
  0x00, 0x00, 0x80, 0x3f, 0x01, 0x00, 0x00, 0x00, 0x0a, 0x00, 0x00, 0x00, 
  0x01, 0x00, 0x00, 0x00, 0x09, 0x00, 0x00, 0x00, 0x9a, 0xff, 0xff, 0xff, 
  0x10, 0x00, 0x00, 0x00, 0x00, 0x00, 0x00, 0x08, 0x0c, 0x00, 0x00, 0x00, 
  0x10, 0x00, 0x00, 0x00, 0x2c, 0xfb, 0xff, 0xff, 0x01, 0x00, 0x00, 0x00, 
  0x09, 0x00, 0x00, 0x00, 0x03, 0x00, 0x00, 0x00, 0x08, 0x00, 0x00, 0x00, 
  0x01, 0x00, 0x00, 0x00, 0x03, 0x00, 0x00, 0x00, 0xca, 0xff, 0xff, 0xff, 
  0x10, 0x00, 0x00, 0x00, 0x00, 0x00, 0x00, 0x08, 0x10, 0x00, 0x00, 0x00, 
  0x14, 0x00, 0x00, 0x00, 0xba, 0xff, 0xff, 0xff, 0x00, 0x00, 0x00, 0x01, 
  0x01, 0x00, 0x00, 0x00, 0x08, 0x00, 0x00, 0x00, 0x03, 0x00, 0x00, 0x00, 
  0x07, 0x00, 0x00, 0x00, 0x02, 0x00, 0x00, 0x00, 0x04, 0x00, 0x00, 0x00, 
  0x00, 0x00, 0x0e, 0x00, 0x16, 0x00, 0x00, 0x00, 0x10, 0x00, 0x0c, 0x00, 
  0x0b, 0x00, 0x04, 0x00, 0x0e, 0x00, 0x00, 0x00, 0x18, 0x00, 0x00, 0x00, 
  0x00, 0x00, 0x00, 0x08, 0x18, 0x00, 0x00, 0x00, 0x1c, 0x00, 0x00, 0x00, 
  0x00, 0x00, 0x06, 0x00, 0x08, 0x00, 0x07, 0x00, 0x06, 0x00, 0x00, 0x00, 
  0x00, 0x00, 0x00, 0x01, 0x01, 0x00, 0x00, 0x00, 0x07, 0x00, 0x00, 0x00, 
  0x03, 0x00, 0x00, 0x00, 0x00, 0x00, 0x00, 0x00, 0x06, 0x00, 0x00, 0x00, 
  0x05, 0x00, 0x00, 0x00, 0x01, 0x00, 0x00, 0x00, 0x0a, 0x00, 0x00, 0x00, 
  0x01, 0x00, 0x00, 0x00, 0x00, 0x00, 0x00, 0x00, 0x0b, 0x00, 0x00, 0x00, 
  0xfc, 0x03, 0x00, 0x00, 0xa4, 0x03, 0x00, 0x00, 0x4c, 0x03, 0x00, 0x00, 
  0x10, 0x03, 0x00, 0x00, 0xb4, 0x02, 0x00, 0x00, 0x5c, 0x02, 0x00, 0x00, 
  0x10, 0x02, 0x00, 0x00, 0x7c, 0x01, 0x00, 0x00, 0xe0, 0x00, 0x00, 0x00, 
  0x60, 0x00, 0x00, 0x00, 0x04, 0x00, 0x00, 0x00, 0x46, 0xfc, 0xff, 0xff, 
  0x00, 0x00, 0x00, 0x01, 0x14, 0x00, 0x00, 0x00, 0x1c, 0x00, 0x00, 0x00, 
  0x1c, 0x00, 0x00, 0x00, 0x0b, 0x00, 0x00, 0x00, 0x34, 0x00, 0x00, 0x00, 
  0x02, 0x00, 0x00, 0x00, 0xff, 0xff, 0xff, 0xff, 0x05, 0x00, 0x00, 0x00, 
  0x30, 0xfc, 0xff, 0xff, 0x1b, 0x00, 0x00, 0x00, 0x53, 0x74, 0x61, 0x74, 
  0x65, 0x66, 0x75, 0x6c, 0x50, 0x61, 0x72, 0x74, 0x69, 0x74, 0x69, 0x6f, 
  0x6e, 0x65, 0x64, 0x43, 0x61, 0x6c, 0x6c, 0x5f, 0x31, 0x3a, 0x30, 0x00, 
  0x02, 0x00, 0x00, 0x00, 0x01, 0x00, 0x00, 0x00, 0x05, 0x00, 0x00, 0x00, 
  0x9e, 0xfc, 0xff, 0xff, 0x00, 0x00, 0x00, 0x01, 0x14, 0x00, 0x00, 0x00, 
  0x1c, 0x00, 0x00, 0x00, 0x1c, 0x00, 0x00, 0x00, 0x0a, 0x00, 0x00, 0x00, 
  0x58, 0x00, 0x00, 0x00, 0x02, 0x00, 0x00, 0x00, 0xff, 0xff, 0xff, 0xff, 
  0x05, 0x00, 0x00, 0x00, 0x88, 0xfc, 0xff, 0xff, 0x3c, 0x00, 0x00, 0x00, 
  0x73, 0x65, 0x71, 0x75, 0x65, 0x6e, 0x74, 0x69, 0x61, 0x6c, 0x5f, 0x31, 
  0x2f, 0x64, 0x65, 0x6e, 0x73, 0x65, 0x5f, 0x32, 0x5f, 0x31, 0x2f, 0x4d, 
  0x61, 0x74, 0x4d, 0x75, 0x6c, 0x3b, 0x73, 0x65, 0x71, 0x75, 0x65, 0x6e, 
  0x74, 0x69, 0x61, 0x6c, 0x5f, 0x31, 0x2f, 0x64, 0x65, 0x6e, 0x73, 0x65, 
  0x5f, 0x32, 0x5f, 0x31, 0x2f, 0x42, 0x69, 0x61, 0x73, 0x41, 0x64, 0x64, 
  0x00, 0x00, 0x00, 0x00, 0x02, 0x00, 0x00, 0x00, 0x01, 0x00, 0x00, 0x00, 
  0x05, 0x00, 0x00, 0x00, 0x1a, 0xfd, 0xff, 0xff, 0x00, 0x00, 0x00, 0x01, 
  0x14, 0x00, 0x00, 0x00, 0x1c, 0x00, 0x00, 0x00, 0x1c, 0x00, 0x00, 0x00, 
  0x09, 0x00, 0x00, 0x00, 0x74, 0x00, 0x00, 0x00, 0x02, 0x00, 0x00, 0x00, 
  0xff, 0xff, 0xff, 0xff, 0x10, 0x00, 0x00, 0x00, 0x04, 0xfd, 0xff, 0xff, 
  0x58, 0x00, 0x00, 0x00, 0x73, 0x65, 0x71, 0x75, 0x65, 0x6e, 0x74, 0x69, 
  0x61, 0x6c, 0x5f, 0x31, 0x2f, 0x64, 0x65, 0x6e, 0x73, 0x65, 0x5f, 0x31, 
  0x5f, 0x32, 0x2f, 0x4d, 0x61, 0x74, 0x4d, 0x75, 0x6c, 0x3b, 0x73, 0x65, 
  0x71, 0x75, 0x65, 0x6e, 0x74, 0x69, 0x61, 0x6c, 0x5f, 0x31, 0x2f, 0x64, 
  0x65, 0x6e, 0x73, 0x65, 0x5f, 0x31, 0x5f, 0x32, 0x2f, 0x52, 0x65, 0x6c, 
  0x75, 0x3b, 0x73, 0x65, 0x71, 0x75, 0x65, 0x6e, 0x74, 0x69, 0x61, 0x6c, 
  0x5f, 0x31, 0x2f, 0x64, 0x65, 0x6e, 0x73, 0x65, 0x5f, 0x31, 0x5f, 0x32, 
  0x2f, 0x42, 0x69, 0x61, 0x73, 0x41, 0x64, 0x64, 0x00, 0x00, 0x00, 0x00, 
  0x02, 0x00, 0x00, 0x00, 0x01, 0x00, 0x00, 0x00, 0x10, 0x00, 0x00, 0x00, 
  0xb2, 0xfd, 0xff, 0xff, 0x00, 0x00, 0x00, 0x01, 0x14, 0x00, 0x00, 0x00, 
  0x1c, 0x00, 0x00, 0x00, 0x1c, 0x00, 0x00, 0x00, 0x08, 0x00, 0x00, 0x00, 
  0x6c, 0x00, 0x00, 0x00, 0x02, 0x00, 0x00, 0x00, 0xff, 0xff, 0xff, 0xff, 
  0x10, 0x00, 0x00, 0x00, 0x9c, 0xfd, 0xff, 0xff, 0x52, 0x00, 0x00, 0x00, 
  0x73, 0x65, 0x71, 0x75, 0x65, 0x6e, 0x74, 0x69, 0x61, 0x6c, 0x5f, 0x31, 
  0x2f, 0x64, 0x65, 0x6e, 0x73, 0x65, 0x5f, 0x31, 0x2f, 0x4d, 0x61, 0x74, 
  0x4d, 0x75, 0x6c, 0x3b, 0x73, 0x65, 0x71, 0x75, 0x65, 0x6e, 0x74, 0x69, 
  0x61, 0x6c, 0x5f, 0x31, 0x2f, 0x64, 0x65, 0x6e, 0x73, 0x65, 0x5f, 0x31, 
  0x2f, 0x52, 0x65, 0x6c, 0x75, 0x3b, 0x73, 0x65, 0x71, 0x75, 0x65, 0x6e, 
  0x74, 0x69, 0x61, 0x6c, 0x5f, 0x31, 0x2f, 0x64, 0x65, 0x6e, 0x73, 0x65, 
  0x5f, 0x31, 0x2f, 0x42, 0x69, 0x61, 0x73, 0x41, 0x64, 0x64, 0x00, 0x00, 
  0x02, 0x00, 0x00, 0x00, 0x01, 0x00, 0x00, 0x00, 0x10, 0x00, 0x00, 0x00, 
  0x96, 0xfe, 0xff, 0xff, 0x00, 0x00, 0x00, 0x01, 0x10, 0x00, 0x00, 0x00, 
  0x10, 0x00, 0x00, 0x00, 0x07, 0x00, 0x00, 0x00, 0x28, 0x00, 0x00, 0x00, 
  0x1c, 0xfe, 0xff, 0xff, 0x1b, 0x00, 0x00, 0x00, 0x73, 0x65, 0x71, 0x75, 
  0x65, 0x6e, 0x74, 0x69, 0x61, 0x6c, 0x5f, 0x31, 0x2f, 0x64, 0x65, 0x6e, 
  0x73, 0x65, 0x5f, 0x31, 0x2f, 0x4d, 0x61, 0x74, 0x4d, 0x75, 0x6c, 0x00, 
  0x02, 0x00, 0x00, 0x00, 0x10, 0x00, 0x00, 0x00, 0x01, 0x00, 0x00, 0x00, 
  0xde, 0xfe, 0xff, 0xff, 0x00, 0x00, 0x00, 0x01, 0x10, 0x00, 0x00, 0x00, 
  0x10, 0x00, 0x00, 0x00, 0x06, 0x00, 0x00, 0x00, 0x38, 0x00, 0x00, 0x00, 
  0x64, 0xfe, 0xff, 0xff, 0x2b, 0x00, 0x00, 0x00, 0x73, 0x65, 0x71, 0x75, 
  0x65, 0x6e, 0x74, 0x69, 0x61, 0x6c, 0x5f, 0x31, 0x2f, 0x64, 0x65, 0x6e, 
  0x73, 0x65, 0x5f, 0x31, 0x2f, 0x42, 0x69, 0x61, 0x73, 0x41, 0x64, 0x64, 
  0x2f, 0x52, 0x65, 0x61, 0x64, 0x56, 0x61, 0x72, 0x69, 0x61, 0x62, 0x6c, 
  0x65, 0x4f, 0x70, 0x00, 0x01, 0x00, 0x00, 0x00, 0x10, 0x00, 0x00, 0x00, 
  0x32, 0xff, 0xff, 0xff, 0x00, 0x00, 0x00, 0x01, 0x10, 0x00, 0x00, 0x00, 
  0x10, 0x00, 0x00, 0x00, 0x05, 0x00, 0x00, 0x00, 0x3c, 0x00, 0x00, 0x00, 
  0xb8, 0xfe, 0xff, 0xff, 0x2d, 0x00, 0x00, 0x00, 0x73, 0x65, 0x71, 0x75, 
  0x65, 0x6e, 0x74, 0x69, 0x61, 0x6c, 0x5f, 0x31, 0x2f, 0x64, 0x65, 0x6e, 
  0x73, 0x65, 0x5f, 0x31, 0x5f, 0x32, 0x2f, 0x42, 0x69, 0x61, 0x73, 0x41, 
  0x64, 0x64, 0x2f, 0x52, 0x65, 0x61, 0x64, 0x56, 0x61, 0x72, 0x69, 0x61, 
  0x62, 0x6c, 0x65, 0x4f, 0x70, 0x00, 0x00, 0x00, 0x01, 0x00, 0x00, 0x00, 
  0x10, 0x00, 0x00, 0x00, 0x8a, 0xff, 0xff, 0xff, 0x00, 0x00, 0x00, 0x01, 
  0x10, 0x00, 0x00, 0x00, 0x10, 0x00, 0x00, 0x00, 0x04, 0x00, 0x00, 0x00, 
  0x1c, 0x00, 0x00, 0x00, 0x10, 0xff, 0xff, 0xff, 0x0f, 0x00, 0x00, 0x00, 
  0x61, 0x72, 0x69, 0x74, 0x68, 0x2e, 0x63, 0x6f, 0x6e, 0x73, 0x74, 0x61, 
  0x6e, 0x74, 0x32, 0x00, 0x01, 0x00, 0x00, 0x00, 0x05, 0x00, 0x00, 0x00, 
  0xc2, 0xff, 0xff, 0xff, 0x00, 0x00, 0x00, 0x01, 0x10, 0x00, 0x00, 0x00, 
  0x10, 0x00, 0x00, 0x00, 0x03, 0x00, 0x00, 0x00, 0x1c, 0x00, 0x00, 0x00, 
  0x48, 0xff, 0xff, 0xff, 0x0f, 0x00, 0x00, 0x00, 0x61, 0x72, 0x69, 0x74, 
  0x68, 0x2e, 0x63, 0x6f, 0x6e, 0x73, 0x74, 0x61, 0x6e, 0x74, 0x31, 0x00, 
  0x02, 0x00, 0x00, 0x00, 0x10, 0x00, 0x00, 0x00, 0x10, 0x00, 0x00, 0x00, 
  0x00, 0x00, 0x16, 0x00, 0x18, 0x00, 0x14, 0x00, 0x00, 0x00, 0x10, 0x00, 
  0x0c, 0x00, 0x08, 0x00, 0x00, 0x00, 0x00, 0x00, 0x00, 0x00, 0x07, 0x00, 
  0x16, 0x00, 0x00, 0x00, 0x00, 0x00, 0x00, 0x01, 0x10, 0x00, 0x00, 0x00, 
  0x10, 0x00, 0x00, 0x00, 0x02, 0x00, 0x00, 0x00, 0x1c, 0x00, 0x00, 0x00, 
  0x9c, 0xff, 0xff, 0xff, 0x0e, 0x00, 0x00, 0x00, 0x61, 0x72, 0x69, 0x74, 
  0x68, 0x2e, 0x63, 0x6f, 0x6e, 0x73, 0x74, 0x61, 0x6e, 0x74, 0x00, 0x00, 
  0x02, 0x00, 0x00, 0x00, 0x05, 0x00, 0x00, 0x00, 0x10, 0x00, 0x00, 0x00, 
  0x00, 0x00, 0x16, 0x00, 0x1c, 0x00, 0x18, 0x00, 0x00, 0x00, 0x14, 0x00, 
  0x10, 0x00, 0x0c, 0x00, 0x00, 0x00, 0x00, 0x00, 0x08, 0x00, 0x07, 0x00, 
  0x16, 0x00, 0x00, 0x00, 0x00, 0x00, 0x00, 0x01, 0x14, 0x00, 0x00, 0x00, 
  0x20, 0x00, 0x00, 0x00, 0x20, 0x00, 0x00, 0x00, 0x01, 0x00, 0x00, 0x00, 
  0x3c, 0x00, 0x00, 0x00, 0x02, 0x00, 0x00, 0x00, 0xff, 0xff, 0xff, 0xff, 
  0x01, 0x00, 0x00, 0x00, 0x04, 0x00, 0x04, 0x00, 0x04, 0x00, 0x00, 0x00, 
  0x1e, 0x00, 0x00, 0x00, 0x73, 0x65, 0x72, 0x76, 0x69, 0x6e, 0x67, 0x5f, 
  0x64, 0x65, 0x66, 0x61, 0x75, 0x6c, 0x74, 0x5f, 0x6b, 0x65, 0x72, 0x61, 
  0x73, 0x5f, 0x74, 0x65, 0x6e, 0x73, 0x6f, 0x72, 0x3a, 0x30, 0x00, 0x00, 
  0x02, 0x00, 0x00, 0x00, 0x01, 0x00, 0x00, 0x00, 0x01, 0x00, 0x00, 0x00, 
  0x02, 0x00, 0x00, 0x00, 0x20, 0x00, 0x00, 0x00, 0x04, 0x00, 0x00, 0x00, 
  0xf4, 0xff, 0xff, 0xff, 0x19, 0x00, 0x00, 0x00, 0x00, 0x00, 0x00, 0x19, 
  0x0c, 0x00, 0x0c, 0x00, 0x0b, 0x00, 0x00, 0x00, 0x00, 0x00, 0x04, 0x00, 
  0x0c, 0x00, 0x00, 0x00, 0x09, 0x00, 0x00, 0x00, 0x00, 0x00, 0x00, 0x09

};

const unsigned int rotational_model_data_len = 3660;

#endif // ROTATIONAL_MODEL_DATA_H
